// Auto-generated by export_calibration.py — DO NOT EDIT
// Calibration weights for OptiX 9.0 cooperative vector in-shader MLP
#pragma once
#include <cuda_fp16.h>

#define CALIBRATION_MODE 1
#define CALIBRATION_NUM_EXPERTS 64

// Affine calibration: calibrated[i] = logits[i] * scale[i] + bias[i]
static const unsigned short k_cal_scale[64] = {
    0xb5e0, 0xb053, 0xb34b, 0x23e2, 0xb392, 0xacc7, 0x32a7, 0x1652,
    0xae11, 0xb245, 0xb915, 0x2d0e, 0x3272, 0xb5fa, 0xb00e, 0xb544,
    0xae6a, 0xb528, 0xb4b5, 0xa002, 0x2f33, 0xb5a5, 0xaca6, 0x9ddf,
    0x2964, 0xa85e, 0xa6d3, 0xaa81, 0x322f, 0xad38, 0xac53, 0xacf0,
    0xa20f, 0x322c, 0xb0c4, 0x2513, 0xb2b3, 0xb205, 0xac04, 0xb2e4,
    0xb3a6, 0xb138, 0xb019, 0x362d, 0x3502, 0xb126, 0xb847, 0xb8cc,
    0xa67c, 0xb6df, 0xb1ab, 0xa9c6, 0xb41e, 0xb074, 0x28cf, 0x2b48,
    0xb1ad, 0x2b91, 0x25bd, 0x2d59, 0x310b, 0x2d49, 0xa80a, 0x2ee5,
};

static const unsigned short k_cal_bias[64] = {
    0xb669, 0xb7e8, 0xaeed, 0xabdd, 0xb996, 0x3690, 0x3279, 0xb090,
    0xb51b, 0xae4e, 0xb8a7, 0x3137, 0x33e9, 0xb4ce, 0xa62f, 0x3452,
    0x2e1b, 0xb3b9, 0x344f, 0x2ed2, 0x334b, 0xb54d, 0x2c72, 0x342a,
    0x3530, 0xaba1, 0x3825, 0x2d8f, 0xac4e, 0xb6f7, 0xb19a, 0xb74e,
    0xa733, 0x382a, 0xacc0, 0xb782, 0xb541, 0x35d5, 0xb368, 0xb7dd,
    0xb4ae, 0x22b7, 0xb2e3, 0xb7f2, 0x3795, 0x3717, 0xb898, 0xb892,
    0x34f6, 0xb702, 0xb909, 0x33d3, 0xac79, 0x2c63, 0x305c, 0x2d9f,
    0x2edb, 0xb0a1, 0x354d, 0xa8f6, 0x9f33, 0x361e, 0x32ae, 0xa9ba,
};
